unsigned char models_model_tflite[] = {
  0x20, 0x00, 0x00, 0x00, 0x54, 0x46, 0x4c, 0x33, 0x00, 0x00, 0x00, 0x00,
  0x14, 0x00, 0x20, 0x00, 0x1c, 0x00, 0x18, 0x00, 0x14, 0x00, 0x10, 0x00,
  0x0c, 0x00, 0x00, 0x00, 0x08, 0x00, 0x04, 0x00, 0x14, 0x00, 0x00, 0x00,
  0x1c, 0x00, 0x00, 0x00, 0x94, 0x00, 0x00, 0x00, 0xc4, 0x00, 0x00, 0x00,
  0xb8, 0x06, 0x00, 0x00, 0xc8, 0x06, 0x00, 0x00, 0xbc, 0x0c, 0x00, 0x00,
  0x03, 0x00, 0x00, 0x00, 0x01, 0x00, 0x00, 0x00, 0x04, 0x00, 0x00, 0x00,
  0xcc, 0xf3, 0xff, 0xff, 0x10, 0x00, 0x00, 0x00, 0x18, 0x00, 0x00, 0x00,
  0x28, 0x00, 0x00, 0x00, 0x44, 0x00, 0x00, 0x00, 0x05, 0x00, 0x00, 0x00,
  0x73, 0x65, 0x72, 0x76, 0x65, 0x00, 0x00, 0x00, 0x0f, 0x00, 0x00, 0x00,
  0x73, 0x65, 0x72, 0x76, 0x69, 0x6e, 0x67, 0x5f, 0x64, 0x65, 0x66, 0x61,
  0x75, 0x6c, 0x74, 0x00, 0x01, 0x00, 0x00, 0x00, 0x04, 0x00, 0x00, 0x00,
  0xc0, 0xff, 0xff, 0xff, 0x09, 0x00, 0x00, 0x00, 0x04, 0x00, 0x00, 0x00,
  0x07, 0x00, 0x00, 0x00, 0x64, 0x65, 0x6e, 0x73, 0x65, 0x5f, 0x32, 0x00,
  0x01, 0x00, 0x00, 0x00, 0x04, 0x00, 0x00, 0x00, 0xda, 0xf9, 0xff, 0xff,
  0x04, 0x00, 0x00, 0x00, 0x0b, 0x00, 0x00, 0x00, 0x64, 0x65, 0x6e, 0x73,
  0x65, 0x5f, 0x69, 0x6e, 0x70, 0x75, 0x74, 0x00, 0x01, 0x00, 0x00, 0x00,
  0x0c, 0x00, 0x00, 0x00, 0x08, 0x00, 0x0c, 0x00, 0x08, 0x00, 0x04, 0x00,
  0x08, 0x00, 0x00, 0x00, 0x0b, 0x00, 0x00, 0x00, 0x04, 0x00, 0x00, 0x00,
  0x13, 0x00, 0x00, 0x00, 0x6d, 0x69, 0x6e, 0x5f, 0x72, 0x75, 0x6e, 0x74,
  0x69, 0x6d, 0x65, 0x5f, 0x76, 0x65, 0x72, 0x73, 0x69, 0x6f, 0x6e, 0x00,
  0x0c, 0x00, 0x00, 0x00, 0xf0, 0x05, 0x00, 0x00, 0xe8, 0x05, 0x00, 0x00,
  0xd4, 0x05, 0x00, 0x00, 0x3c, 0x05, 0x00, 0x00, 0xac, 0x04, 0x00, 0x00,
  0x7c, 0x04, 0x00, 0x00, 0x6c, 0x00, 0x00, 0x00, 0x3c, 0x00, 0x00, 0x00,
  0x34, 0x00, 0x00, 0x00, 0x2c, 0x00, 0x00, 0x00, 0x24, 0x00, 0x00, 0x00,
  0x04, 0x00, 0x00, 0x00, 0x5a, 0xfa, 0xff, 0xff, 0x04, 0x00, 0x00, 0x00,
  0x10, 0x00, 0x00, 0x00, 0x31, 0x2e, 0x35, 0x2e, 0x30, 0x00, 0x00, 0x00,
  0x00, 0x00, 0x00, 0x00, 0x00, 0x00, 0x00, 0x00, 0xe4, 0xf9, 0xff, 0xff,
  0xe8, 0xf9, 0xff, 0xff, 0xec, 0xf9, 0xff, 0xff, 0x82, 0xfa, 0xff, 0xff,
  0x04, 0x00, 0x00, 0x00, 0x20, 0x00, 0x00, 0x00, 0x50, 0x1b, 0xc6, 0xf8,
  0x0d, 0xab, 0xe3, 0x3f, 0x17, 0xf2, 0xf0, 0xe7, 0x52, 0x28, 0x02, 0xcc,
  0xe0, 0xd6, 0xd4, 0xd9, 0x44, 0x0c, 0x0d, 0xff, 0xf0, 0xe9, 0xe5, 0x7f,
  0xe2, 0x3f, 0x3e, 0x27, 0xae, 0xfa, 0xff, 0xff, 0x04, 0x00, 0x00, 0x00,
  0x00, 0x04, 0x00, 0x00, 0x01, 0xd0, 0xf1, 0xec, 0xd0, 0xfe, 0x17, 0x1d,
  0xc4, 0xaf, 0x13, 0xeb, 0xd5, 0xfe, 0x0a, 0x2c, 0xd1, 0xdf, 0xf3, 0x20,
  0xed, 0x2a, 0x0b, 0x15, 0x11, 0x27, 0x2a, 0xcf, 0x23, 0xa1, 0x05, 0x0a,
  0xfa, 0x3c, 0x37, 0xf3, 0xf6, 0x18, 0x1c, 0x25, 0xe6, 0x1f, 0x14, 0xc8,
  0x32, 0x08, 0x98, 0xd6, 0xf5, 0xf8, 0x00, 0x02, 0x21, 0xe5, 0xce, 0x2d,
  0x20, 0x25, 0x06, 0xe2, 0xe6, 0x2a, 0xe0, 0xc6, 0xf7, 0xfb, 0x38, 0xcf,
  0x09, 0xcf, 0xa0, 0x16, 0x30, 0xd2, 0x2d, 0x54, 0x02, 0x25, 0x39, 0xf2,
  0xe8, 0x1e, 0xb8, 0xef, 0xae, 0x06, 0xe2, 0x2d, 0xde, 0xd4, 0xec, 0xfc,
  0x1f, 0x04, 0xdb, 0x1f, 0x32, 0x27, 0xef, 0x03, 0x08, 0x18, 0x2e, 0xda,
  0x11, 0xec, 0xf0, 0xf9, 0x03, 0xef, 0x56, 0xd0, 0x13, 0x08, 0x2b, 0x0f,
  0xd6, 0x2a, 0x1f, 0x09, 0x27, 0x1a, 0x18, 0xe1, 0x01, 0xfb, 0x0b, 0x2b,
  0x13, 0x3c, 0x00, 0xd0, 0x08, 0xfe, 0x07, 0x00, 0x38, 0x52, 0x0c, 0xd4,
  0x0c, 0xf2, 0xba, 0x07, 0x20, 0xdf, 0x0f, 0xf4, 0x25, 0x18, 0x2d, 0xeb,
  0xf3, 0x0f, 0x2d, 0xfa, 0xdb, 0x32, 0x23, 0xf1, 0xf0, 0xa7, 0x0c, 0x03,
  0x09, 0xbc, 0xe1, 0xf5, 0x08, 0xf5, 0x40, 0x49, 0xc3, 0xde, 0x4c, 0xe2,
  0x25, 0xf2, 0xa4, 0xda, 0x02, 0x07, 0x2f, 0xde, 0xee, 0xf3, 0x0d, 0x2e,
  0x4b, 0x09, 0x07, 0x04, 0xfa, 0xf9, 0x01, 0x21, 0xef, 0xed, 0xf4, 0xd1,
  0xe0, 0x32, 0x1c, 0x01, 0xd3, 0x0b, 0xd0, 0x15, 0xee, 0x32, 0x1c, 0xcf,
  0xdf, 0xf1, 0x21, 0xfa, 0xe0, 0xec, 0x03, 0x10, 0x0a, 0xcf, 0x2d, 0xe9,
  0x0a, 0xfa, 0xd6, 0xf6, 0x1d, 0xdb, 0xe7, 0x2b, 0xc3, 0xc5, 0xf8, 0x18,
  0x33, 0xd6, 0x3e, 0x09, 0x30, 0x1b, 0xe0, 0x21, 0x1c, 0x08, 0x24, 0xdf,
  0x0c, 0xfa, 0x32, 0xe9, 0x44, 0xa7, 0xe6, 0x43, 0xfc, 0x03, 0xe2, 0xd8,
  0xe8, 0x1d, 0x08, 0x26, 0x12, 0x22, 0xc5, 0x1c, 0x20, 0x10, 0xd0, 0xf1,
  0xe6, 0xf3, 0x21, 0xef, 0xde, 0xfd, 0x2d, 0xd4, 0xff, 0x38, 0xef, 0x27,
  0xd8, 0x29, 0x0b, 0xc1, 0x19, 0xe1, 0xce, 0xcf, 0x30, 0x04, 0xd5, 0x00,
  0x1d, 0x14, 0xdf, 0xf9, 0x16, 0xe8, 0xd9, 0x14, 0x21, 0xf1, 0xfa, 0xd5,
  0x01, 0x27, 0xdf, 0xec, 0xf5, 0xd4, 0x29, 0x1a, 0xdc, 0xd2, 0xff, 0x03,
  0xe1, 0xee, 0x1b, 0x19, 0x09, 0xfc, 0x26, 0xf4, 0x14, 0xc2, 0x3c, 0x07,
  0xf5, 0xa3, 0x49, 0x19, 0x26, 0xe8, 0x05, 0xe3, 0xef, 0xd4, 0x22, 0x15,
  0x09, 0xf2, 0x21, 0xce, 0x18, 0x97, 0x31, 0x42, 0x05, 0xf3, 0x2b, 0xd3,
  0x17, 0x04, 0xcf, 0xe1, 0x11, 0xde, 0xe8, 0xe4, 0x1c, 0x2a, 0xda, 0xd5,
  0xff, 0xd7, 0xe9, 0xe1, 0xdc, 0x0d, 0xf8, 0x20, 0xfd, 0x26, 0xd7, 0x14,
  0x0b, 0x0d, 0xeb, 0xfc, 0x05, 0xd8, 0x0d, 0x24, 0x1e, 0xc8, 0x07, 0x30,
  0xc9, 0xad, 0x32, 0x37, 0xdb, 0xd6, 0x3e, 0x13, 0x2d, 0x27, 0x25, 0x15,
  0xf3, 0xdf, 0xf7, 0xe5, 0x2d, 0xd4, 0xf9, 0xd0, 0x30, 0x9d, 0x2d, 0xfe,
  0x05, 0x0f, 0xd7, 0x12, 0xd6, 0x02, 0xf3, 0xed, 0xf2, 0xe0, 0xd3, 0xef,
  0x25, 0xd8, 0xe4, 0xf9, 0xf9, 0x12, 0xe8, 0xea, 0xf3, 0xd6, 0x02, 0xe1,
  0x14, 0xd3, 0xf6, 0x32, 0xdf, 0x08, 0xea, 0x05, 0xea, 0xe3, 0x2d, 0xd4,
  0x00, 0x17, 0xe1, 0x2a, 0xf2, 0x27, 0xf6, 0x18, 0x00, 0xe6, 0x18, 0xd6,
  0xf8, 0xff, 0x10, 0x24, 0xe5, 0xdf, 0x15, 0xf3, 0x22, 0xde, 0xec, 0x04,
  0xd6, 0xd7, 0xe3, 0xf8, 0xd9, 0xf6, 0x3b, 0x26, 0xed, 0xca, 0xbb, 0xdf,
  0x04, 0x0d, 0x58, 0x4d, 0x18, 0x0a, 0x16, 0x0d, 0x1e, 0xfb, 0xab, 0xf7,
  0xa2, 0xf5, 0x0f, 0xe5, 0xd0, 0xc3, 0x14, 0x2c, 0x53, 0xe8, 0xd6, 0x2d,
  0x0d, 0xc9, 0x25, 0x1b, 0x2b, 0xe0, 0x1c, 0x1f, 0xe9, 0x07, 0xf2, 0x28,
  0xd9, 0xf9, 0x26, 0x24, 0x27, 0x04, 0x33, 0x10, 0x2c, 0xea, 0x17, 0xe1,
  0xd7, 0x29, 0xe2, 0xef, 0x18, 0x99, 0xef, 0x37, 0x26, 0xf1, 0xce, 0x17,
  0x1c, 0xdf, 0xde, 0xe1, 0x2c, 0xdc, 0xe7, 0xd7, 0xf4, 0x10, 0xeb, 0x27,
  0x2a, 0xd2, 0x19, 0xf1, 0x1a, 0x2c, 0x28, 0x1e, 0x15, 0xf5, 0x10, 0xf3,
  0x14, 0xd5, 0x1a, 0xde, 0x03, 0xdf, 0x1f, 0xfa, 0x29, 0xf0, 0xcc, 0xff,
  0x0c, 0xeb, 0x28, 0x5d, 0x01, 0xb8, 0x12, 0x1f, 0xfc, 0xd5, 0xb7, 0x2b,
  0xa7, 0xe9, 0xf6, 0xe5, 0x0c, 0xcb, 0xec, 0xe2, 0x5c, 0x29, 0xcb, 0xff,
  0x06, 0x13, 0xf2, 0xf1, 0x09, 0x21, 0x2f, 0xd1, 0xf5, 0x07, 0x1d, 0x00,
  0xe2, 0xe8, 0x1d, 0x03, 0x0c, 0xfe, 0x0d, 0xf8, 0x0a, 0x17, 0xeb, 0x1e,
  0xf2, 0xea, 0x16, 0x20, 0x30, 0xf1, 0x25, 0x0b, 0xeb, 0x0d, 0xe8, 0xff,
  0x02, 0xd7, 0x21, 0xe2, 0xdd, 0x3b, 0xff, 0xfb, 0x28, 0x24, 0xe6, 0x2b,
  0xf9, 0x01, 0xd4, 0x12, 0xd7, 0x0f, 0x1b, 0xda, 0x1a, 0x35, 0xe4, 0xf5,
  0xfd, 0x4e, 0xdf, 0xc2, 0x2b, 0x0c, 0xd9, 0x1a, 0x15, 0x2a, 0x0b, 0x28,
  0x1c, 0x01, 0xfa, 0x11, 0xfc, 0x05, 0x01, 0xfe, 0x02, 0x15, 0x10, 0x24,
  0xcb, 0xf6, 0x1c, 0xce, 0xfc, 0x2d, 0xe8, 0x01, 0x0a, 0x09, 0xdd, 0xf5,
  0xd9, 0xd1, 0xd9, 0x0a, 0x02, 0xdb, 0xe9, 0xfb, 0x25, 0xe9, 0x15, 0xed,
  0xe9, 0x17, 0xe3, 0xd4, 0xdf, 0xf2, 0xf5, 0x10, 0xfe, 0x0e, 0x03, 0xf2,
  0x2e, 0xd5, 0x2c, 0x00, 0x1d, 0xde, 0xfe, 0x08, 0x2f, 0x16, 0xf7, 0xf6,
  0x2f, 0xf9, 0xcc, 0xed, 0xe7, 0x22, 0x19, 0xcd, 0xd0, 0x00, 0x02, 0x1b,
  0x03, 0x1c, 0x19, 0xfa, 0x20, 0x22, 0x25, 0xf2, 0xd9, 0xe1, 0xe8, 0x22,
  0x0a, 0x2d, 0xe9, 0xf2, 0x13, 0xd3, 0x02, 0x12, 0xd9, 0x12, 0x04, 0x1a,
  0xd1, 0x1e, 0xd8, 0xd0, 0x1e, 0x05, 0xdc, 0xf1, 0x0b, 0x04, 0x0e, 0x10,
  0x06, 0xdc, 0xd4, 0xf5, 0xea, 0xd5, 0x02, 0x29, 0xda, 0xed, 0xd5, 0x19,
  0xea, 0xcd, 0xff, 0x24, 0xd3, 0x0a, 0x0d, 0x0f, 0x01, 0xd6, 0x2d, 0x23,
  0x04, 0xfd, 0x24, 0x2e, 0xdf, 0xf4, 0x14, 0x2c, 0xf1, 0x2c, 0x0a, 0x29,
  0xdd, 0xf6, 0x2d, 0xd7, 0x26, 0xbd, 0x08, 0x3c, 0x1e, 0x10, 0xe3, 0xde,
  0x17, 0xf7, 0xe0, 0xe2, 0xfa, 0x05, 0xd1, 0xf4, 0x1f, 0x17, 0xf1, 0x11,
  0xd6, 0xf1, 0xe1, 0xe2, 0x0f, 0x07, 0x0d, 0xe2, 0x24, 0x0a, 0xe8, 0x11,
  0x00, 0xe5, 0x2e, 0xcf, 0xd8, 0xf7, 0x16, 0x06, 0x2a, 0xe0, 0xdb, 0xd0,
  0x22, 0x39, 0xb5, 0xed, 0x34, 0x56, 0xc6, 0xe7, 0x07, 0x1d, 0xf4, 0x14,
  0xe1, 0xfc, 0xd6, 0x2c, 0xdb, 0x35, 0x1a, 0x15, 0xe5, 0x7f, 0x24, 0x8f,
  0x30, 0x1d, 0x25, 0xea, 0xdb, 0x02, 0x00, 0x1e, 0xdf, 0x20, 0x25, 0xf0,
  0xdb, 0x2b, 0xc8, 0xff, 0xcf, 0x30, 0xcf, 0xc7, 0x27, 0x1b, 0x0c, 0xf6,
  0xd6, 0x04, 0x12, 0x0f, 0x1a, 0xe2, 0xfc, 0xfc, 0x22, 0xfa, 0xf4, 0xd6,
  0xeb, 0xba, 0x03, 0x0d, 0xd6, 0xbc, 0x23, 0x3a, 0xe6, 0xe8, 0x41, 0xd3,
  0xff, 0xfc, 0x08, 0xe7, 0x05, 0xed, 0x21, 0x1f, 0xce, 0xfc, 0xee, 0xd1,
  0x14, 0xc5, 0x05, 0x4b, 0x24, 0xde, 0xe2, 0x05, 0x12, 0x1e, 0xe5, 0xe5,
  0xf8, 0xd5, 0x3e, 0x1f, 0xe3, 0xe5, 0x56, 0x24, 0x0f, 0xef, 0xe9, 0x34,
  0x21, 0x31, 0x01, 0xef, 0x29, 0xd2, 0xe2, 0xce, 0x45, 0x9b, 0xf8, 0xfc,
  0x11, 0x0f, 0x14, 0x0f, 0xed, 0xe8, 0xe5, 0x1b, 0x02, 0xe3, 0xd3, 0xd6,
  0x16, 0xf9, 0xf1, 0x10, 0xd3, 0xd8, 0x08, 0xff, 0x21, 0x11, 0x0f, 0x2d,
  0xe3, 0x22, 0xf8, 0xe1, 0xce, 0x2f, 0xe8, 0xe2, 0xba, 0xfe, 0xff, 0xff,
  0x04, 0x00, 0x00, 0x00, 0x20, 0x00, 0x00, 0x00, 0xa6, 0x67, 0x25, 0xee,
  0xc8, 0x24, 0x78, 0xef, 0x36, 0x30, 0x0d, 0x05, 0x67, 0x3a, 0xf8, 0x81,
  0xf0, 0xbe, 0x66, 0x59, 0x49, 0x8a, 0x8d, 0xcd, 0xbd, 0x6b, 0xf8, 0xbb,
  0x0e, 0x40, 0x55, 0xfd, 0xe6, 0xfe, 0xff, 0xff, 0x04, 0x00, 0x00, 0x00,
  0x80, 0x00, 0x00, 0x00, 0x00, 0x00, 0x00, 0x00, 0xc3, 0xea, 0xff, 0xff,
  0x60, 0xfd, 0xff, 0xff, 0x00, 0x00, 0x00, 0x00, 0x00, 0x00, 0x00, 0x00,
  0x1d, 0xff, 0xff, 0xff, 0x71, 0x09, 0x00, 0x00, 0x00, 0x00, 0x00, 0x00,
  0x52, 0xf7, 0xff, 0xff, 0x3d, 0xee, 0xff, 0xff, 0x78, 0x14, 0x00, 0x00,
  0xef, 0x0c, 0x00, 0x00, 0xe8, 0xe4, 0xff, 0xff, 0x8e, 0xe7, 0xff, 0xff,
  0x03, 0x0f, 0x00, 0x00, 0x00, 0x00, 0x00, 0x00, 0x00, 0x00, 0x00, 0x00,
  0x00, 0x00, 0x00, 0x00, 0x9e, 0x08, 0x00, 0x00, 0x07, 0x02, 0x00, 0x00,
  0x8e, 0x0b, 0x00, 0x00, 0x00, 0x00, 0x00, 0x00, 0x00, 0x00, 0x00, 0x00,
  0x00, 0x00, 0x00, 0x00, 0x00, 0x00, 0x00, 0x00, 0x11, 0xea, 0xff, 0xff,
  0x00, 0x00, 0x00, 0x00, 0x00, 0x00, 0x00, 0x00, 0x84, 0x13, 0x00, 0x00,
  0x11, 0xe5, 0xff, 0xff, 0x1b, 0x07, 0x00, 0x00, 0x01, 0x23, 0x00, 0x00,
  0x72, 0xff, 0xff, 0xff, 0x04, 0x00, 0x00, 0x00, 0x80, 0x00, 0x00, 0x00,
  0xe8, 0x0f, 0x00, 0x00, 0x18, 0xf2, 0xff, 0xff, 0xb5, 0x12, 0x00, 0x00,
  0x02, 0x07, 0x00, 0x00, 0x05, 0xf3, 0xff, 0xff, 0x86, 0x10, 0x00, 0x00,
  0x00, 0x00, 0x00, 0x00, 0xe0, 0x11, 0x00, 0x00, 0x4c, 0xed, 0xff, 0xff,
  0x00, 0x00, 0x00, 0x00, 0x46, 0x0e, 0x00, 0x00, 0x00, 0x00, 0x00, 0x00,
  0x24, 0x0f, 0x00, 0x00, 0x00, 0x00, 0x00, 0x00, 0x3f, 0xff, 0xff, 0xff,
  0x1c, 0x12, 0x00, 0x00, 0x86, 0x0b, 0x00, 0x00, 0x00, 0x00, 0x00, 0x00,
  0x8b, 0x13, 0x00, 0x00, 0x98, 0x0a, 0x00, 0x00, 0xbc, 0xf0, 0xff, 0xff,
  0x62, 0xf8, 0xff, 0xff, 0x0d, 0xfd, 0xff, 0xff, 0x1f, 0xfd, 0xff, 0xff,
  0x00, 0x00, 0x00, 0x00, 0xd8, 0x0c, 0x00, 0x00, 0x00, 0x00, 0x00, 0x00,
  0x84, 0xe9, 0xff, 0xff, 0x68, 0xfd, 0xff, 0xff, 0xe6, 0x13, 0x00, 0x00,
  0xd7, 0x12, 0x00, 0x00, 0x00, 0x00, 0x00, 0x00, 0x00, 0x00, 0x06, 0x00,
  0x08, 0x00, 0x04, 0x00, 0x06, 0x00, 0x00, 0x00, 0x04, 0x00, 0x00, 0x00,
  0x04, 0x00, 0x00, 0x00, 0x01, 0xf6, 0xff, 0xff, 0x84, 0xff, 0xff, 0xff,
  0x88, 0xff, 0xff, 0xff, 0x0f, 0x00, 0x00, 0x00, 0x4d, 0x4c, 0x49, 0x52,
  0x20, 0x43, 0x6f, 0x6e, 0x76, 0x65, 0x72, 0x74, 0x65, 0x64, 0x2e, 0x00,
  0x01, 0x00, 0x00, 0x00, 0x14, 0x00, 0x00, 0x00, 0x00, 0x00, 0x0e, 0x00,
  0x18, 0x00, 0x14, 0x00, 0x10, 0x00, 0x0c, 0x00, 0x08, 0x00, 0x04, 0x00,
  0x0e, 0x00, 0x00, 0x00, 0x14, 0x00, 0x00, 0x00, 0x1c, 0x00, 0x00, 0x00,
  0xdc, 0x00, 0x00, 0x00, 0xe0, 0x00, 0x00, 0x00, 0xe4, 0x00, 0x00, 0x00,
  0x04, 0x00, 0x00, 0x00, 0x6d, 0x61, 0x69, 0x6e, 0x00, 0x00, 0x00, 0x00,
  0x03, 0x00, 0x00, 0x00, 0x84, 0x00, 0x00, 0x00, 0x3c, 0x00, 0x00, 0x00,
  0x04, 0x00, 0x00, 0x00, 0x96, 0xff, 0xff, 0xff, 0x14, 0x00, 0x00, 0x00,
  0x00, 0x00, 0x00, 0x08, 0x10, 0x00, 0x00, 0x00, 0x14, 0x00, 0x00, 0x00,
  0x04, 0x00, 0x04, 0x00, 0x04, 0x00, 0x00, 0x00, 0x01, 0x00, 0x00, 0x00,
  0x09, 0x00, 0x00, 0x00, 0x03, 0x00, 0x00, 0x00, 0x08, 0x00, 0x00, 0x00,
  0x06, 0x00, 0x00, 0x00, 0x01, 0x00, 0x00, 0x00, 0xca, 0xff, 0xff, 0xff,
  0x10, 0x00, 0x00, 0x00, 0x00, 0x00, 0x00, 0x08, 0x10, 0x00, 0x00, 0x00,
  0x14, 0x00, 0x00, 0x00, 0xba, 0xff, 0xff, 0xff, 0x00, 0x00, 0x00, 0x01,
  0x01, 0x00, 0x00, 0x00, 0x08, 0x00, 0x00, 0x00, 0x03, 0x00, 0x00, 0x00,
  0x07, 0x00, 0x00, 0x00, 0x05, 0x00, 0x00, 0x00, 0x02, 0x00, 0x00, 0x00,
  0x00, 0x00, 0x0e, 0x00, 0x16, 0x00, 0x00, 0x00, 0x10, 0x00, 0x0c, 0x00,
  0x0b, 0x00, 0x04, 0x00, 0x0e, 0x00, 0x00, 0x00, 0x18, 0x00, 0x00, 0x00,
  0x00, 0x00, 0x00, 0x08, 0x18, 0x00, 0x00, 0x00, 0x1c, 0x00, 0x00, 0x00,
  0x00, 0x00, 0x06, 0x00, 0x08, 0x00, 0x07, 0x00, 0x06, 0x00, 0x00, 0x00,
  0x00, 0x00, 0x00, 0x01, 0x01, 0x00, 0x00, 0x00, 0x07, 0x00, 0x00, 0x00,
  0x03, 0x00, 0x00, 0x00, 0x00, 0x00, 0x00, 0x00, 0x04, 0x00, 0x00, 0x00,
  0x03, 0x00, 0x00, 0x00, 0x01, 0x00, 0x00, 0x00, 0x09, 0x00, 0x00, 0x00,
  0x01, 0x00, 0x00, 0x00, 0x00, 0x00, 0x00, 0x00, 0x0a, 0x00, 0x00, 0x00,
  0x44, 0x04, 0x00, 0x00, 0xc8, 0x03, 0x00, 0x00, 0x60, 0x03, 0x00, 0x00,
  0x0c, 0x03, 0x00, 0x00, 0x98, 0x02, 0x00, 0x00, 0x24, 0x02, 0x00, 0x00,
  0xb0, 0x01, 0x00, 0x00, 0x24, 0x01, 0x00, 0x00, 0x98, 0x00, 0x00, 0x00,
  0x04, 0x00, 0x00, 0x00, 0xf8, 0xfb, 0xff, 0xff, 0x18, 0x00, 0x00, 0x00,
  0x20, 0x00, 0x00, 0x00, 0x54, 0x00, 0x00, 0x00, 0x0a, 0x00, 0x00, 0x00,
  0x00, 0x00, 0x00, 0x09, 0x6c, 0x00, 0x00, 0x00, 0x02, 0x00, 0x00, 0x00,
  0xff, 0xff, 0xff, 0xff, 0x01, 0x00, 0x00, 0x00, 0xe4, 0xfb, 0xff, 0xff,
  0x10, 0x00, 0x00, 0x00, 0x18, 0x00, 0x00, 0x00, 0x1c, 0x00, 0x00, 0x00,
  0x20, 0x00, 0x00, 0x00, 0x01, 0x00, 0x00, 0x00, 0xff, 0xff, 0xff, 0xff,
  0xff, 0xff, 0xff, 0xff, 0x01, 0x00, 0x00, 0x00, 0x17, 0x3a, 0x02, 0x3c,
  0x01, 0x00, 0x00, 0x00, 0xf9, 0xae, 0x82, 0x3f, 0x01, 0x00, 0x00, 0x00,
  0xc1, 0xc0, 0x80, 0xbf, 0x1e, 0x00, 0x00, 0x00, 0x53, 0x74, 0x61, 0x74,
  0x65, 0x66, 0x75, 0x6c, 0x50, 0x61, 0x72, 0x74, 0x69, 0x74, 0x69, 0x6f,
  0x6e, 0x65, 0x64, 0x43, 0x61, 0x6c, 0x6c, 0x3a, 0x30, 0x5f, 0x69, 0x6e,
  0x74, 0x38, 0x00, 0x00, 0x02, 0x00, 0x00, 0x00, 0x01, 0x00, 0x00, 0x00,
  0x01, 0x00, 0x00, 0x00, 0x88, 0xfc, 0xff, 0xff, 0x18, 0x00, 0x00, 0x00,
  0x20, 0x00, 0x00, 0x00, 0x54, 0x00, 0x00, 0x00, 0x09, 0x00, 0x00, 0x00,
  0x00, 0x00, 0x00, 0x09, 0x64, 0x00, 0x00, 0x00, 0x02, 0x00, 0x00, 0x00,
  0xff, 0xff, 0xff, 0xff, 0x20, 0x00, 0x00, 0x00, 0x74, 0xfc, 0xff, 0xff,
  0x10, 0x00, 0x00, 0x00, 0x18, 0x00, 0x00, 0x00, 0x1c, 0x00, 0x00, 0x00,
  0x20, 0x00, 0x00, 0x00, 0x01, 0x00, 0x00, 0x00, 0x80, 0xff, 0xff, 0xff,
  0xff, 0xff, 0xff, 0xff, 0x01, 0x00, 0x00, 0x00, 0xc2, 0xec, 0x06, 0x3c,
  0x01, 0x00, 0x00, 0x00, 0xd5, 0x65, 0x06, 0x40, 0x01, 0x00, 0x00, 0x00,
  0x00, 0x00, 0x00, 0x00, 0x14, 0x00, 0x00, 0x00, 0x74, 0x66, 0x6c, 0x2e,
  0x66, 0x75, 0x6c, 0x6c, 0x79, 0x5f, 0x63, 0x6f, 0x6e, 0x6e, 0x65, 0x63,
  0x74, 0x65, 0x64, 0x31, 0x00, 0x00, 0x00, 0x00, 0x02, 0x00, 0x00, 0x00,
  0x01, 0x00, 0x00, 0x00, 0x20, 0x00, 0x00, 0x00, 0x10, 0xfd, 0xff, 0xff,
  0x18, 0x00, 0x00, 0x00, 0x20, 0x00, 0x00, 0x00, 0x58, 0x00, 0x00, 0x00,
  0x08, 0x00, 0x00, 0x00, 0x00, 0x00, 0x00, 0x09, 0x64, 0x00, 0x00, 0x00,
  0x02, 0x00, 0x00, 0x00, 0xff, 0xff, 0xff, 0xff, 0x20, 0x00, 0x00, 0x00,
  0xfc, 0xfc, 0xff, 0xff, 0x10, 0x00, 0x00, 0x00, 0x1c, 0x00, 0x00, 0x00,
  0x20, 0x00, 0x00, 0x00, 0x24, 0x00, 0x00, 0x00, 0x01, 0x00, 0x00, 0x00,
  0x80, 0xff, 0xff, 0xff, 0xff, 0xff, 0xff, 0xff, 0x00, 0x00, 0x00, 0x00,
  0x01, 0x00, 0x00, 0x00, 0x04, 0x96, 0x26, 0x3c, 0x01, 0x00, 0x00, 0x00,
  0x6e, 0xef, 0x25, 0x40, 0x01, 0x00, 0x00, 0x00, 0x00, 0x00, 0x00, 0x00,
  0x13, 0x00, 0x00, 0x00, 0x74, 0x66, 0x6c, 0x2e, 0x66, 0x75, 0x6c, 0x6c,
  0x79, 0x5f, 0x63, 0x6f, 0x6e, 0x6e, 0x65, 0x63, 0x74, 0x65, 0x64, 0x00,
  0x02, 0x00, 0x00, 0x00, 0x01, 0x00, 0x00, 0x00, 0x20, 0x00, 0x00, 0x00,
  0x0a, 0xfe, 0xff, 0xff, 0x14, 0x00, 0x00, 0x00, 0x48, 0x00, 0x00, 0x00,
  0x07, 0x00, 0x00, 0x00, 0x00, 0x00, 0x00, 0x09, 0x50, 0x00, 0x00, 0x00,
  0x74, 0xfd, 0xff, 0xff, 0x10, 0x00, 0x00, 0x00, 0x18, 0x00, 0x00, 0x00,
  0x1c, 0x00, 0x00, 0x00, 0x20, 0x00, 0x00, 0x00, 0x01, 0x00, 0x00, 0x00,
  0x00, 0x00, 0x00, 0x00, 0x00, 0x00, 0x00, 0x00, 0x01, 0x00, 0x00, 0x00,
  0x94, 0x92, 0x1b, 0x3c, 0x01, 0x00, 0x00, 0x00, 0x6f, 0x5b, 0x9a, 0x3f,
  0x01, 0x00, 0x00, 0x00, 0xae, 0x84, 0x4e, 0xbf, 0x0d, 0x00, 0x00, 0x00,
  0x73, 0x74, 0x64, 0x2e, 0x63, 0x6f, 0x6e, 0x73, 0x74, 0x61, 0x6e, 0x74,
  0x32, 0x00, 0x00, 0x00, 0x02, 0x00, 0x00, 0x00, 0x01, 0x00, 0x00, 0x00,
  0x20, 0x00, 0x00, 0x00, 0x7a, 0xfe, 0xff, 0xff, 0x14, 0x00, 0x00, 0x00,
  0x48, 0x00, 0x00, 0x00, 0x06, 0x00, 0x00, 0x00, 0x00, 0x00, 0x00, 0x09,
  0x50, 0x00, 0x00, 0x00, 0xe4, 0xfd, 0xff, 0xff, 0x10, 0x00, 0x00, 0x00,
  0x18, 0x00, 0x00, 0x00, 0x1c, 0x00, 0x00, 0x00, 0x20, 0x00, 0x00, 0x00,
  0x01, 0x00, 0x00, 0x00, 0x00, 0x00, 0x00, 0x00, 0x00, 0x00, 0x00, 0x00,
  0x01, 0x00, 0x00, 0x00, 0x52, 0x84, 0xc7, 0x3b, 0x01, 0x00, 0x00, 0x00,
  0x49, 0xf5, 0x45, 0x3f, 0x01, 0x00, 0x00, 0x00, 0x6c, 0x5d, 0x30, 0xbf,
  0x0d, 0x00, 0x00, 0x00, 0x73, 0x74, 0x64, 0x2e, 0x63, 0x6f, 0x6e, 0x73,
  0x74, 0x61, 0x6e, 0x74, 0x31, 0x00, 0x00, 0x00, 0x02, 0x00, 0x00, 0x00,
  0x20, 0x00, 0x00, 0x00, 0x20, 0x00, 0x00, 0x00, 0xea, 0xfe, 0xff, 0xff,
  0x14, 0x00, 0x00, 0x00, 0x48, 0x00, 0x00, 0x00, 0x05, 0x00, 0x00, 0x00,
  0x00, 0x00, 0x00, 0x09, 0x50, 0x00, 0x00, 0x00, 0x54, 0xfe, 0xff, 0xff,
  0x10, 0x00, 0x00, 0x00, 0x18, 0x00, 0x00, 0x00, 0x1c, 0x00, 0x00, 0x00,
  0x20, 0x00, 0x00, 0x00, 0x01, 0x00, 0x00, 0x00, 0x00, 0x00, 0x00, 0x00,
  0x00, 0x00, 0x00, 0x00, 0x01, 0x00, 0x00, 0x00, 0xb0, 0x9a, 0x50, 0x3b,
  0x01, 0x00, 0x00, 0x00, 0xf1, 0x5b, 0xc4, 0x3e, 0x01, 0x00, 0x00, 0x00,
  0x7b, 0xf9, 0xce, 0xbe, 0x0c, 0x00, 0x00, 0x00, 0x73, 0x74, 0x64, 0x2e,
  0x63, 0x6f, 0x6e, 0x73, 0x74, 0x61, 0x6e, 0x74, 0x00, 0x00, 0x00, 0x00,
  0x02, 0x00, 0x00, 0x00, 0x20, 0x00, 0x00, 0x00, 0x01, 0x00, 0x00, 0x00,
  0x5a, 0xff, 0xff, 0xff, 0x14, 0x00, 0x00, 0x00, 0x30, 0x00, 0x00, 0x00,
  0x04, 0x00, 0x00, 0x00, 0x00, 0x00, 0x00, 0x02, 0x34, 0x00, 0x00, 0x00,
  0x4c, 0xff, 0xff, 0xff, 0x08, 0x00, 0x00, 0x00, 0x10, 0x00, 0x00, 0x00,
  0x01, 0x00, 0x00, 0x00, 0x00, 0x00, 0x00, 0x00, 0x00, 0x00, 0x00, 0x00,
  0x01, 0x00, 0x00, 0x00, 0xf4, 0x10, 0xa4, 0x38, 0x0a, 0x00, 0x00, 0x00,
  0x64, 0x65, 0x6e, 0x73, 0x65, 0x2f, 0x62, 0x69, 0x61, 0x73, 0x00, 0x00,
  0x01, 0x00, 0x00, 0x00, 0x20, 0x00, 0x00, 0x00, 0xaa, 0xff, 0xff, 0xff,
  0x14, 0x00, 0x00, 0x00, 0x30, 0x00, 0x00, 0x00, 0x03, 0x00, 0x00, 0x00,
  0x00, 0x00, 0x00, 0x02, 0x38, 0x00, 0x00, 0x00, 0x9c, 0xff, 0xff, 0xff,
  0x08, 0x00, 0x00, 0x00, 0x10, 0x00, 0x00, 0x00, 0x01, 0x00, 0x00, 0x00,
  0x00, 0x00, 0x00, 0x00, 0x00, 0x00, 0x00, 0x00, 0x01, 0x00, 0x00, 0x00,
  0xb8, 0xd4, 0x81, 0x38, 0x0c, 0x00, 0x00, 0x00, 0x64, 0x65, 0x6e, 0x73,
  0x65, 0x5f, 0x31, 0x2f, 0x62, 0x69, 0x61, 0x73, 0x00, 0x00, 0x00, 0x00,
  0x01, 0x00, 0x00, 0x00, 0x20, 0x00, 0x00, 0x00, 0x00, 0x00, 0x0e, 0x00,
  0x18, 0x00, 0x14, 0x00, 0x13, 0x00, 0x0c, 0x00, 0x08, 0x00, 0x04, 0x00,
  0x0e, 0x00, 0x00, 0x00, 0x20, 0x00, 0x00, 0x00, 0x40, 0x00, 0x00, 0x00,
  0x02, 0x00, 0x00, 0x00, 0x00, 0x00, 0x00, 0x02, 0x48, 0x00, 0x00, 0x00,
  0x0c, 0x00, 0x0c, 0x00, 0x00, 0x00, 0x00, 0x00, 0x08, 0x00, 0x04, 0x00,
  0x0c, 0x00, 0x00, 0x00, 0x08, 0x00, 0x00, 0x00, 0x14, 0x00, 0x00, 0x00,
  0x01, 0x00, 0x00, 0x00, 0x00, 0x00, 0x00, 0x00, 0x00, 0x00, 0x00, 0x00,
  0x00, 0x00, 0x00, 0x00, 0x01, 0x00, 0x00, 0x00, 0x35, 0xfd, 0xa3, 0x38,
  0x0c, 0x00, 0x00, 0x00, 0x64, 0x65, 0x6e, 0x73, 0x65, 0x5f, 0x32, 0x2f,
  0x62, 0x69, 0x61, 0x73, 0x00, 0x00, 0x00, 0x00, 0x01, 0x00, 0x00, 0x00,
  0x01, 0x00, 0x00, 0x00, 0x14, 0x00, 0x1c, 0x00, 0x18, 0x00, 0x17, 0x00,
  0x10, 0x00, 0x0c, 0x00, 0x08, 0x00, 0x00, 0x00, 0x00, 0x00, 0x04, 0x00,
  0x14, 0x00, 0x00, 0x00, 0x18, 0x00, 0x00, 0x00, 0x2c, 0x00, 0x00, 0x00,
  0x60, 0x00, 0x00, 0x00, 0x01, 0x00, 0x00, 0x00, 0x00, 0x00, 0x00, 0x09,
  0x7c, 0x00, 0x00, 0x00, 0x02, 0x00, 0x00, 0x00, 0xff, 0xff, 0xff, 0xff,
  0x01, 0x00, 0x00, 0x00, 0x0c, 0x00, 0x14, 0x00, 0x10, 0x00, 0x0c, 0x00,
  0x08, 0x00, 0x04, 0x00, 0x0c, 0x00, 0x00, 0x00, 0x10, 0x00, 0x00, 0x00,
  0x18, 0x00, 0x00, 0x00, 0x1c, 0x00, 0x00, 0x00, 0x20, 0x00, 0x00, 0x00,
  0x01, 0x00, 0x00, 0x00, 0x80, 0xff, 0xff, 0xff, 0xff, 0xff, 0xff, 0xff,
  0x01, 0x00, 0x00, 0x00, 0xbf, 0x57, 0xc9, 0x3c, 0x01, 0x00, 0x00, 0x00,
  0x67, 0x8e, 0xc8, 0x40, 0x01, 0x00, 0x00, 0x00, 0x00, 0x00, 0x00, 0x00,
  0x22, 0x00, 0x00, 0x00, 0x73, 0x65, 0x72, 0x76, 0x69, 0x6e, 0x67, 0x5f,
  0x64, 0x65, 0x66, 0x61, 0x75, 0x6c, 0x74, 0x5f, 0x64, 0x65, 0x6e, 0x73,
  0x65, 0x5f, 0x69, 0x6e, 0x70, 0x75, 0x74, 0x3a, 0x30, 0x5f, 0x69, 0x6e,
  0x74, 0x38, 0x00, 0x00, 0x02, 0x00, 0x00, 0x00, 0x01, 0x00, 0x00, 0x00,
  0x01, 0x00, 0x00, 0x00, 0x03, 0x00, 0x00, 0x00, 0x40, 0x00, 0x00, 0x00,
  0x24, 0x00, 0x00, 0x00, 0x04, 0x00, 0x00, 0x00, 0xd8, 0xff, 0xff, 0xff,
  0x06, 0x00, 0x00, 0x00, 0x02, 0x00, 0x00, 0x00, 0x00, 0x00, 0x00, 0x06,
  0x0c, 0x00, 0x0c, 0x00, 0x0b, 0x00, 0x00, 0x00, 0x00, 0x00, 0x04, 0x00,
  0x0c, 0x00, 0x00, 0x00, 0x72, 0x00, 0x00, 0x00, 0x00, 0x00, 0x00, 0x72,
  0x0c, 0x00, 0x10, 0x00, 0x0f, 0x00, 0x00, 0x00, 0x08, 0x00, 0x04, 0x00,
  0x0c, 0x00, 0x00, 0x00, 0x09, 0x00, 0x00, 0x00, 0x04, 0x00, 0x00, 0x00,
  0x00, 0x00, 0x00, 0x09
};
unsigned int models_model_tflite_len = 3400;
